unsigned char model_tflite[] = {
  0x1c, 0x00, 0x00, 0x00, 0x54, 0x46, 0x4c, 0x33, 0x00, 0x00, 0x12, 0x00,
  0x1c, 0x00, 0x04, 0x00, 0x08, 0x00, 0x0c, 0x00, 0x10, 0x00, 0x14, 0x00,
  0x00, 0x00, 0x18, 0x00, 0x12, 0x00, 0x00, 0x00, 0x03, 0x00, 0x00, 0x00,
  0x14, 0x00, 0x00, 0x00, 0x1c, 0x00, 0x00, 0x00, 0x9c, 0x00, 0x00, 0x00,
  0x1c, 0x00, 0x00, 0x00, 0x44, 0x00, 0x00, 0x00, 0x02, 0x00, 0x00, 0x00,
  0x94, 0x02, 0x00, 0x00, 0x50, 0x01, 0x00, 0x00, 0x01, 0x00, 0x00, 0x00,
  0xa4, 0x00, 0x00, 0x00, 0x0a, 0x00, 0x00, 0x00, 0xc0, 0x0b, 0x00, 0x00,
  0xbc, 0x0b, 0x00, 0x00, 0xa0, 0x0a, 0x00, 0x00, 0x10, 0x0a, 0x00, 0x00,
  0xbc, 0x04, 0x00, 0x00, 0xe8, 0x02, 0x00, 0x00, 0xa8, 0x0b, 0x00, 0x00,
  0xa4, 0x0b, 0x00, 0x00, 0xa0, 0x0b, 0x00, 0x00, 0x38, 0x00, 0x00, 0x00,
  0x01, 0x00, 0x00, 0x00, 0x0c, 0x00, 0x00, 0x00, 0x08, 0x00, 0x0c, 0x00,
  0x04, 0x00, 0x08, 0x00, 0x08, 0x00, 0x00, 0x00, 0x08, 0x00, 0x00, 0x00,
  0x09, 0x00, 0x00, 0x00, 0x13, 0x00, 0x00, 0x00, 0x6d, 0x69, 0x6e, 0x5f,
  0x72, 0x75, 0x6e, 0x74, 0x69, 0x6d, 0x65, 0x5f, 0x76, 0x65, 0x72, 0x73,
  0x69, 0x6f, 0x6e, 0x00, 0xba, 0xf5, 0xff, 0xff, 0x04, 0x00, 0x00, 0x00,
  0x10, 0x00, 0x00, 0x00, 0x31, 0x2e, 0x35, 0x2e, 0x30, 0x00, 0x00, 0x00,
  0x00, 0x00, 0x00, 0x00, 0x00, 0x00, 0x00, 0x00, 0x0f, 0x00, 0x00, 0x00,
  0x4d, 0x4c, 0x49, 0x52, 0x20, 0x43, 0x6f, 0x6e, 0x76, 0x65, 0x72, 0x74,
  0x65, 0x64, 0x2e, 0x00, 0x00, 0x00, 0x0e, 0x00, 0x18, 0x00, 0x04, 0x00,
  0x08, 0x00, 0x0c, 0x00, 0x10, 0x00, 0x14, 0x00, 0x0e, 0x00, 0x00, 0x00,
  0x14, 0x00, 0x00, 0x00, 0x34, 0x00, 0x00, 0x00, 0x38, 0x00, 0x00, 0x00,
  0x3c, 0x00, 0x00, 0x00, 0x48, 0x00, 0x00, 0x00, 0x08, 0x00, 0x00, 0x00,
  0xbc, 0x0a, 0x00, 0x00, 0x48, 0x0a, 0x00, 0x00, 0x80, 0x09, 0x00, 0x00,
  0x14, 0x09, 0x00, 0x00, 0xc0, 0x03, 0x00, 0x00, 0xc0, 0x01, 0x00, 0x00,
  0x00, 0x01, 0x00, 0x00, 0x78, 0x00, 0x00, 0x00, 0x01, 0x00, 0x00, 0x00,
  0x00, 0x00, 0x00, 0x00, 0x01, 0x00, 0x00, 0x00, 0x07, 0x00, 0x00, 0x00,
  0x03, 0x00, 0x00, 0x00, 0x4c, 0x01, 0x00, 0x00, 0xb0, 0x00, 0x00, 0x00,
  0x1c, 0x00, 0x00, 0x00, 0x04, 0x00, 0x00, 0x00, 0x6d, 0x61, 0x69, 0x6e,
  0x00, 0x00, 0x0e, 0x00, 0x18, 0x00, 0x08, 0x00, 0x0c, 0x00, 0x10, 0x00,
  0x07, 0x00, 0x14, 0x00, 0x0e, 0x00, 0x00, 0x00, 0x00, 0x00, 0x00, 0x09,
  0x01, 0x00, 0x00, 0x00, 0x1c, 0x00, 0x00, 0x00, 0x10, 0x00, 0x00, 0x00,
  0x04, 0x00, 0x00, 0x00, 0x86, 0xf6, 0xff, 0xff, 0x00, 0x00, 0x80, 0x3f,
  0x01, 0x00, 0x00, 0x00, 0x07, 0x00, 0x00, 0x00, 0x01, 0x00, 0x00, 0x00,
  0x06, 0x00, 0x00, 0x00, 0xca, 0xfe, 0xff, 0xff, 0x00, 0x00, 0x00, 0x19,
  0x01, 0x00, 0x00, 0x00, 0xec, 0xf5, 0xff, 0xff, 0x14, 0x00, 0x00, 0x00,
  0x08, 0x00, 0x00, 0x00, 0x24, 0x00, 0x00, 0x00, 0x30, 0x00, 0x00, 0x00,
  0x10, 0x00, 0x00, 0x00, 0x02, 0x00, 0x00, 0x00, 0x01, 0x00, 0x00, 0x00,
  0x06, 0x00, 0x00, 0x00, 0x02, 0x00, 0x00, 0x00, 0xff, 0xff, 0xff, 0xff,
  0x06, 0x00, 0x00, 0x00, 0x08, 0x00, 0x00, 0x00, 0x49, 0x64, 0x65, 0x6e,
  0x74, 0x69, 0x74, 0x79, 0x00, 0x00, 0x00, 0x00, 0xf4, 0xf6, 0xff, 0xff,
  0x00, 0x00, 0x0e, 0x00, 0x14, 0x00, 0x00, 0x00, 0x08, 0x00, 0x0c, 0x00,
  0x07, 0x00, 0x10, 0x00, 0x0e, 0x00, 0x00, 0x00, 0x00, 0x00, 0x00, 0x08,
  0x18, 0x00, 0x00, 0x00, 0x0c, 0x00, 0x00, 0x00, 0x04, 0x00, 0x00, 0x00,
  0xf8, 0xf5, 0xff, 0xff, 0x01, 0x00, 0x00, 0x00, 0x06, 0x00, 0x00, 0x00,
  0x03, 0x00, 0x00, 0x00, 0x05, 0x00, 0x00, 0x00, 0x04, 0x00, 0x00, 0x00,
  0x02, 0x00, 0x00, 0x00, 0x70, 0xf6, 0xff, 0xff, 0x14, 0x00, 0x00, 0x00,
  0x07, 0x00, 0x00, 0x00, 0x24, 0x00, 0x00, 0x00, 0x44, 0x00, 0x00, 0x00,
  0x10, 0x00, 0x00, 0x00, 0x02, 0x00, 0x00, 0x00, 0x01, 0x00, 0x00, 0x00,
  0x06, 0x00, 0x00, 0x00, 0x02, 0x00, 0x00, 0x00, 0xff, 0xff, 0xff, 0xff,
  0x06, 0x00, 0x00, 0x00, 0x1c, 0x00, 0x00, 0x00, 0x73, 0x65, 0x71, 0x75,
  0x65, 0x6e, 0x74, 0x69, 0x61, 0x6c, 0x5f, 0x33, 0x2f, 0x64, 0x65, 0x6e,
  0x73, 0x65, 0x5f, 0x37, 0x2f, 0x42, 0x69, 0x61, 0x73, 0x41, 0x64, 0x64,
  0x00, 0x00, 0x00, 0x00, 0x8c, 0xf7, 0xff, 0xff, 0x00, 0x00, 0x0e, 0x00,
  0x16, 0x00, 0x00, 0x00, 0x08, 0x00, 0x0c, 0x00, 0x07, 0x00, 0x10, 0x00,
  0x0e, 0x00, 0x00, 0x00, 0x00, 0x00, 0x00, 0x08, 0x24, 0x00, 0x00, 0x00,
  0x18, 0x00, 0x00, 0x00, 0x0c, 0x00, 0x00, 0x00, 0x00, 0x00, 0x06, 0x00,
  0x08, 0x00, 0x07, 0x00, 0x06, 0x00, 0x00, 0x00, 0x00, 0x00, 0x00, 0x01,
  0x01, 0x00, 0x00, 0x00, 0x05, 0x00, 0x00, 0x00, 0x03, 0x00, 0x00, 0x00,
  0x00, 0x00, 0x00, 0x00, 0x03, 0x00, 0x00, 0x00, 0x01, 0x00, 0x00, 0x00,
  0x00, 0x00, 0x0a, 0x00, 0x0c, 0x00, 0x07, 0x00, 0x00, 0x00, 0x08, 0x00,
  0x0a, 0x00, 0x00, 0x00, 0x00, 0x00, 0x00, 0x09, 0x01, 0x00, 0x00, 0x00,
  0x2c, 0xf7, 0xff, 0xff, 0x14, 0x00, 0x00, 0x00, 0x06, 0x00, 0x00, 0x00,
  0x24, 0x00, 0x00, 0x00, 0x5c, 0x00, 0x00, 0x00, 0x10, 0x00, 0x00, 0x00,
  0x02, 0x00, 0x00, 0x00, 0x01, 0x00, 0x00, 0x00, 0x10, 0x00, 0x00, 0x00,
  0x02, 0x00, 0x00, 0x00, 0xff, 0xff, 0xff, 0xff, 0x10, 0x00, 0x00, 0x00,
  0x36, 0x00, 0x00, 0x00, 0x73, 0x65, 0x71, 0x75, 0x65, 0x6e, 0x74, 0x69,
  0x61, 0x6c, 0x5f, 0x33, 0x2f, 0x64, 0x65, 0x6e, 0x73, 0x65, 0x5f, 0x36,
  0x2f, 0x52, 0x65, 0x6c, 0x75, 0x3b, 0x73, 0x65, 0x71, 0x75, 0x65, 0x6e,
  0x74, 0x69, 0x61, 0x6c, 0x5f, 0x33, 0x2f, 0x64, 0x65, 0x6e, 0x73, 0x65,
  0x5f, 0x36, 0x2f, 0x42, 0x69, 0x61, 0x73, 0x41, 0x64, 0x64, 0x00, 0x00,
  0x3c, 0xf7, 0xff, 0xff, 0x5a, 0xf8, 0xff, 0xff, 0x04, 0x00, 0x00, 0x00,
  0x80, 0x01, 0x00, 0x00, 0xea, 0x1d, 0xe0, 0xbd, 0x7f, 0x49, 0x1b, 0xbf,
  0x12, 0x56, 0xe7, 0xbf, 0x4b, 0x08, 0x2f, 0xc0, 0x4b, 0xf0, 0x53, 0xbf,
  0xcb, 0x37, 0x42, 0xc0, 0xa0, 0xc9, 0x01, 0xba, 0x97, 0x4d, 0x8b, 0xbe,
  0xb2, 0x8e, 0xc5, 0x3e, 0xf6, 0x4d, 0xf7, 0xbe, 0xe4, 0x70, 0x32, 0xbf,
  0x41, 0xc9, 0x01, 0x3a, 0x42, 0xc9, 0x01, 0xba, 0x3e, 0xea, 0x1d, 0x40,
  0xa0, 0xc9, 0x01, 0x3a, 0x1f, 0x44, 0x9a, 0xbe, 0x15, 0xc3, 0x0b, 0xc0,
  0xc4, 0x81, 0x61, 0xbe, 0x21, 0xef, 0x20, 0x3f, 0xe2, 0x4f, 0xde, 0xbf,
  0x98, 0x6d, 0x17, 0x3d, 0x1d, 0x9f, 0x29, 0xbd, 0x41, 0xc9, 0x01, 0xba,
  0x57, 0x64, 0xc5, 0x3f, 0xd0, 0x91, 0x57, 0xbe, 0x64, 0x47, 0x33, 0x3e,
  0xc8, 0x37, 0x9d, 0x3f, 0xa0, 0xc9, 0x01, 0xba, 0xa0, 0xc9, 0x01, 0xba,
  0x1c, 0x66, 0x38, 0xbf, 0xa0, 0xc9, 0x01, 0x3a, 0x1a, 0x01, 0x40, 0x40,
  0xf0, 0x06, 0xf5, 0x3e, 0x09, 0xcc, 0x58, 0x3d, 0x85, 0x5b, 0x7b, 0xbe,
  0x60, 0x6e, 0xf1, 0x3e, 0xe2, 0xf3, 0x05, 0xc0, 0xc3, 0xae, 0x26, 0xba,
  0x41, 0xc9, 0x01, 0x3a, 0x0b, 0x50, 0x30, 0x3b, 0x0c, 0x2a, 0x68, 0xc0,
  0xf5, 0xf4, 0x86, 0xc0, 0xd3, 0xe5, 0x1b, 0x3b, 0xa0, 0xc9, 0x01, 0xba,
  0x41, 0xc9, 0x01, 0xba, 0x9c, 0x45, 0x07, 0xc0, 0x42, 0xc9, 0x01, 0x3a,
  0x00, 0x23, 0x95, 0xbe, 0xfb, 0xe3, 0x11, 0xbe, 0x8f, 0x36, 0x7d, 0xc0,
  0x9d, 0xcb, 0x47, 0x3f, 0x85, 0x64, 0xd7, 0x3e, 0xc5, 0xec, 0x8b, 0x3f,
  0x3e, 0x8d, 0x0a, 0xba, 0xa0, 0xc9, 0x01, 0xba, 0x16, 0x09, 0xdc, 0x39,
  0xd8, 0x9e, 0x87, 0xc0, 0x56, 0xf8, 0x92, 0xbf, 0x14, 0x1c, 0xb6, 0x39,
  0xa1, 0xc9, 0x01, 0x3a, 0x42, 0xc9, 0x01, 0x3a, 0xd0, 0x9d, 0x8e, 0x3f,
  0xa0, 0xc9, 0x01, 0x3a, 0xd6, 0xc3, 0x27, 0xba, 0xba, 0x10, 0x0c, 0xbf,
  0x6d, 0xd2, 0x50, 0xbf, 0x7a, 0x94, 0xac, 0xbf, 0x12, 0xda, 0x2b, 0x3f,
  0xe9, 0xb2, 0x4e, 0xc0, 0xc5, 0x84, 0xed, 0x3f, 0xa1, 0xc9, 0x01, 0xba,
  0x91, 0x8b, 0xa3, 0xbf, 0xf1, 0xc9, 0xbb, 0x3e, 0x89, 0x67, 0x50, 0xbf,
  0x59, 0xe2, 0x00, 0xbf, 0xa0, 0xc9, 0x01, 0x3a, 0xa1, 0xc9, 0x01, 0x3a,
  0x18, 0xf4, 0x15, 0x3e, 0xa1, 0xc9, 0x01, 0xba, 0xf2, 0x25, 0x98, 0xbf,
  0xe5, 0x67, 0xa6, 0xbe, 0xc3, 0xab, 0x7a, 0x3f, 0x05, 0x9a, 0xb7, 0x3f,
  0x03, 0x08, 0x31, 0xc0, 0x0f, 0xd7, 0x5e, 0x40, 0x38, 0xb7, 0xca, 0xbf,
  0x41, 0xc9, 0x01, 0x3a, 0xf6, 0x0f, 0x1c, 0xc0, 0x97, 0xf8, 0x31, 0xbf,
  0xbd, 0xd9, 0x89, 0x3e, 0xd1, 0xfb, 0x3b, 0xc0, 0x41, 0xc9, 0x01, 0xba,
  0x41, 0xc9, 0x01, 0xba, 0xf4, 0xd4, 0xa2, 0xc0, 0xa1, 0xc9, 0x01, 0xba,
  0x98, 0xeb, 0x95, 0xc0, 0x92, 0xf9, 0xff, 0xff, 0x10, 0x00, 0x00, 0x00,
  0x05, 0x00, 0x00, 0x00, 0x14, 0x00, 0x00, 0x00, 0x30, 0x00, 0x00, 0x00,
  0x02, 0x00, 0x00, 0x00, 0x06, 0x00, 0x00, 0x00, 0x10, 0x00, 0x00, 0x00,
  0x1b, 0x00, 0x00, 0x00, 0x73, 0x65, 0x71, 0x75, 0x65, 0x6e, 0x74, 0x69,
  0x61, 0x6c, 0x5f, 0x33, 0x2f, 0x64, 0x65, 0x6e, 0x73, 0x65, 0x5f, 0x37,
  0x2f, 0x4d, 0x61, 0x74, 0x4d, 0x75, 0x6c, 0x00, 0x0c, 0xf9, 0xff, 0xff,
  0x2a, 0xfa, 0xff, 0xff, 0x04, 0x00, 0x00, 0x00, 0x00, 0x05, 0x00, 0x00,
  0x6e, 0x30, 0x40, 0xbf, 0xdb, 0x07, 0x04, 0x3f, 0xf3, 0x0f, 0xf6, 0xbf,
  0xed, 0x62, 0x8e, 0xbf, 0xf4, 0xdd, 0x89, 0x3c, 0x9b, 0x73, 0xa6, 0xbf,
  0xe8, 0x18, 0x78, 0x3f, 0xdc, 0x74, 0xb1, 0x3e, 0x64, 0x14, 0x90, 0x40,
  0x74, 0x7e, 0x9e, 0x3f, 0x5c, 0x01, 0x72, 0x3f, 0x60, 0xbb, 0xbb, 0x3e,
  0x39, 0x33, 0x5d, 0x3f, 0x8c, 0x0c, 0x00, 0x3f, 0xf2, 0x27, 0xec, 0xbf,
  0x5c, 0xa5, 0x82, 0xbf, 0xe1, 0x34, 0x4f, 0xbf, 0x82, 0x3a, 0xe5, 0xbf,
  0x9d, 0x9b, 0x90, 0x3e, 0x04, 0xfc, 0x14, 0x3e, 0x53, 0x8e, 0x8a, 0x3f,
  0x51, 0x6c, 0xab, 0x3f, 0x65, 0x5c, 0x87, 0x40, 0x8c, 0x6f, 0x53, 0xbe,
  0x1a, 0x85, 0xf4, 0x3f, 0xfa, 0x33, 0x23, 0x40, 0x72, 0x92, 0x96, 0x3f,
  0xa1, 0x00, 0xb7, 0xbf, 0xae, 0x14, 0xb3, 0x3f, 0xbb, 0x9a, 0x53, 0x3f,
  0x1f, 0x25, 0x48, 0xbf, 0x0a, 0x91, 0x01, 0xbf, 0xc8, 0x5b, 0xbf, 0x3a,
  0xa6, 0x11, 0xc4, 0xbe, 0xc1, 0x09, 0x35, 0x40, 0x5e, 0xcc, 0x8f, 0x40,
  0x3f, 0x4e, 0xaa, 0x3f, 0x08, 0x97, 0x02, 0x3f, 0xc7, 0x2b, 0xc6, 0x3f,
  0x9b, 0x39, 0x79, 0xbe, 0xff, 0xc6, 0xdb, 0x3f, 0x89, 0x51, 0x73, 0x3e,
  0xbf, 0x20, 0x83, 0x40, 0xaa, 0xdb, 0xb6, 0x3e, 0x50, 0x21, 0xda, 0x3d,
  0x9c, 0xd6, 0x39, 0x40, 0x8a, 0xe7, 0x3b, 0x3e, 0xa4, 0x37, 0x4c, 0x3f,
  0xc2, 0xdc, 0xff, 0x3e, 0x51, 0xf5, 0xbd, 0xbe, 0xac, 0xb5, 0xca, 0x3e,
  0x28, 0x20, 0xe9, 0xbe, 0x12, 0x8b, 0x37, 0xbf, 0x86, 0xbd, 0x18, 0xbe,
  0xe5, 0x8a, 0xea, 0xbd, 0x6b, 0x6f, 0xc5, 0x3d, 0x8a, 0xd2, 0xdc, 0xbf,
  0xe9, 0xe2, 0x2a, 0xbf, 0x4b, 0x2b, 0xa0, 0xbf, 0xea, 0x93, 0xa3, 0xbf,
  0xcb, 0x76, 0x46, 0xc0, 0xcc, 0x63, 0x8e, 0xbf, 0x59, 0x7f, 0x18, 0xc0,
  0x24, 0x17, 0x5c, 0xc0, 0xf9, 0x5c, 0xb6, 0xbf, 0x71, 0x7f, 0x15, 0xc0,
  0x8e, 0xf1, 0x37, 0x3f, 0xa1, 0x0e, 0x2b, 0x3f, 0xc0, 0x07, 0xbb, 0xbd,
  0x5f, 0x83, 0x63, 0x3f, 0xe9, 0x27, 0x18, 0x3e, 0xe4, 0x34, 0x54, 0xbe,
  0xc8, 0x86, 0xd5, 0xbb, 0x6f, 0x8e, 0x9e, 0x3f, 0x89, 0xc4, 0xc2, 0xc0,
  0x42, 0x72, 0x33, 0xc0, 0xb9, 0x58, 0x98, 0xc0, 0xb6, 0x0b, 0x86, 0xc0,
  0x30, 0x7d, 0xa7, 0xbf, 0x65, 0x30, 0xf0, 0xbf, 0x36, 0xa2, 0x6c, 0x3f,
  0x38, 0x81, 0x11, 0x3f, 0x4f, 0x5e, 0x44, 0x40, 0x2c, 0xd0, 0xea, 0xbd,
  0x30, 0x5b, 0x7c, 0x3f, 0x1f, 0x9e, 0xd1, 0x3f, 0xf6, 0xe2, 0x03, 0xbe,
  0xe4, 0x31, 0xdf, 0x3f, 0x02, 0xe6, 0x09, 0xbf, 0x9b, 0xd4, 0x21, 0xbf,
  0x36, 0x11, 0x2a, 0x3f, 0x67, 0x24, 0x09, 0xbd, 0x5d, 0x3e, 0x7f, 0xbf,
  0x8e, 0xa6, 0x28, 0xbf, 0xde, 0xf8, 0x49, 0x3f, 0x0a, 0x62, 0x15, 0x40,
  0xb1, 0x01, 0x4a, 0xbf, 0xe9, 0xf5, 0x66, 0xbf, 0xef, 0xb9, 0x54, 0x3f,
  0x01, 0x7a, 0xe4, 0xbf, 0x48, 0x5d, 0x69, 0x3f, 0xae, 0xfd, 0xfe, 0x3f,
  0xd5, 0x43, 0x03, 0xc0, 0x82, 0x58, 0xaa, 0x3f, 0xbe, 0x3e, 0xbf, 0x3f,
  0x25, 0x92, 0xb7, 0xbf, 0x4e, 0xc5, 0xa3, 0xbf, 0x88, 0x55, 0x38, 0xbf,
  0x78, 0xa3, 0x1b, 0xbf, 0x84, 0x92, 0x00, 0xbf, 0xe5, 0x84, 0xf2, 0x3e,
  0xce, 0x17, 0x46, 0xbf, 0x7f, 0xf9, 0x7a, 0x3f, 0x85, 0x33, 0x2c, 0xbe,
  0x54, 0x93, 0xd8, 0x3f, 0xac, 0x31, 0xe7, 0x3f, 0x51, 0x2c, 0x69, 0xbc,
  0xa3, 0x52, 0x20, 0x40, 0xd5, 0x5c, 0xaf, 0x3f, 0x0b, 0x73, 0xa0, 0xbe,
  0xea, 0x26, 0x8c, 0xbb, 0xc8, 0x0c, 0x9c, 0x3c, 0xf1, 0xc8, 0xe6, 0xbe,
  0xc5, 0x56, 0xa9, 0xbe, 0x5b, 0xde, 0xd5, 0xbe, 0x29, 0x72, 0x90, 0xbc,
  0xf7, 0xa3, 0x00, 0x3e, 0x49, 0xcb, 0xa5, 0xbe, 0x25, 0x6a, 0x94, 0xbd,
  0xe2, 0x77, 0x89, 0xbe, 0x45, 0x67, 0x01, 0xbe, 0x3f, 0x84, 0xac, 0x3e,
  0x83, 0x63, 0x6e, 0x3e, 0x76, 0x57, 0x36, 0x3e, 0x80, 0x6c, 0x96, 0x3d,
  0x5a, 0xea, 0xd7, 0xbe, 0xac, 0x57, 0xb7, 0xbe, 0x75, 0x46, 0xc5, 0xbe,
  0x00, 0x86, 0x5b, 0x3d, 0x4f, 0x74, 0xa4, 0x3e, 0x9d, 0x62, 0x9c, 0x3f,
  0x43, 0x47, 0x45, 0xbe, 0xdf, 0x1b, 0x1a, 0x3f, 0x02, 0x2e, 0x1b, 0x40,
  0x96, 0x01, 0xc5, 0x3e, 0xee, 0xff, 0xa9, 0x3f, 0x1a, 0x0b, 0xd9, 0x3e,
  0xce, 0xad, 0x52, 0x3e, 0xb8, 0x9a, 0xa2, 0xbf, 0xe0, 0xc6, 0xe0, 0xbe,
  0x6e, 0x83, 0x84, 0xbe, 0x20, 0x12, 0x13, 0xbf, 0xa7, 0x82, 0x99, 0xbe,
  0xb8, 0xbc, 0xf0, 0x3e, 0x69, 0x03, 0xe4, 0x3f, 0xfe, 0x8d, 0x4c, 0xbd,
  0x57, 0xc6, 0x67, 0x3e, 0x9a, 0x50, 0x36, 0x40, 0x45, 0xbf, 0x75, 0x3f,
  0x7b, 0x34, 0xbe, 0x3f, 0x30, 0xc7, 0x0e, 0xc0, 0x0c, 0x38, 0xbf, 0xbe,
  0x29, 0x26, 0x6b, 0xc0, 0xe8, 0xdf, 0xd5, 0xbf, 0xc5, 0xb3, 0x9c, 0xbe,
  0xcd, 0xb1, 0x28, 0xc0, 0xda, 0x2c, 0xd4, 0x3f, 0xac, 0x28, 0xdb, 0xbe,
  0x30, 0x04, 0xe7, 0xbf, 0x14, 0x78, 0xa2, 0x3e, 0x6f, 0x9d, 0x36, 0x3f,
  0x7c, 0x0a, 0xab, 0x3d, 0xc9, 0x07, 0x38, 0x3f, 0x23, 0x9d, 0x8d, 0x3f,
  0x22, 0x63, 0xa6, 0x40, 0x1f, 0xc6, 0xce, 0x40, 0x41, 0x19, 0xdc, 0x40,
  0x25, 0xaf, 0xd0, 0x3f, 0x6f, 0x6b, 0x17, 0x40, 0x63, 0x10, 0x06, 0x3f,
  0xce, 0x8e, 0x9c, 0x3f, 0x61, 0x09, 0x31, 0x3f, 0xcb, 0x41, 0x38, 0x40,
  0x68, 0xd9, 0x2e, 0x3f, 0xb8, 0xa3, 0x64, 0x3f, 0xf4, 0xe4, 0xc4, 0x3f,
  0x62, 0x2c, 0x6d, 0x3e, 0x92, 0xa0, 0xb9, 0x3f, 0xfd, 0x6f, 0x77, 0xbf,
  0xa5, 0x2a, 0x98, 0xbe, 0x65, 0x2d, 0x39, 0x3f, 0x3b, 0x68, 0xbc, 0xbd,
  0x4b, 0x28, 0x40, 0x3f, 0xa7, 0x44, 0x43, 0xbf, 0x43, 0x16, 0x9d, 0x40,
  0x1e, 0xce, 0x8c, 0x40, 0x0d, 0xad, 0x78, 0x40, 0x32, 0xc2, 0xaa, 0x3f,
  0x47, 0xec, 0x20, 0x3f, 0x1a, 0x42, 0xa4, 0x3c, 0x16, 0x56, 0x8e, 0x3f,
  0xb9, 0x16, 0xf1, 0xbd, 0x07, 0xc4, 0x98, 0x3f, 0x47, 0xed, 0xfa, 0x3f,
  0x7c, 0x80, 0x45, 0x3f, 0xc8, 0x33, 0x75, 0x3f, 0x03, 0x4b, 0x1b, 0xbe,
  0x4c, 0x9a, 0xd6, 0xbd, 0xba, 0xd2, 0x58, 0xbf, 0x3d, 0x56, 0x25, 0x3d,
  0x4d, 0x27, 0x1d, 0xbf, 0x55, 0x7e, 0x2d, 0xbf, 0x8a, 0x50, 0x01, 0xbf,
  0x69, 0x8c, 0xbe, 0x3e, 0x09, 0xa9, 0x7e, 0x3f, 0x07, 0x1c, 0xa1, 0x3f,
  0xb1, 0x32, 0xcc, 0x3d, 0x0f, 0x74, 0x3e, 0x40, 0xea, 0xf4, 0x07, 0x40,
  0x5f, 0x36, 0xdb, 0x3e, 0xba, 0x77, 0x4b, 0x3d, 0x69, 0x77, 0x21, 0xbe,
  0xce, 0x7f, 0x51, 0x3e, 0x0b, 0xea, 0xa9, 0x3e, 0x11, 0x4b, 0xa9, 0x3e,
  0x7c, 0xd8, 0xb1, 0xbe, 0x05, 0x7e, 0x34, 0xbe, 0xaa, 0x39, 0xdf, 0xbe,
  0x6d, 0x60, 0x96, 0xbe, 0x88, 0x78, 0x70, 0x3e, 0x04, 0x14, 0x07, 0xbd,
  0x52, 0x5c, 0x8e, 0xbe, 0x7a, 0xee, 0xdf, 0xbe, 0x05, 0x43, 0x8e, 0x3e,
  0x2b, 0x60, 0xb1, 0xbe, 0x7f, 0x62, 0x76, 0xbe, 0xac, 0xe0, 0xa6, 0xbe,
  0x61, 0x6c, 0xb9, 0x3e, 0x07, 0xda, 0x28, 0xbe, 0x4a, 0x36, 0xb3, 0x3e,
  0x7f, 0x37, 0xa0, 0xbe, 0xa3, 0x69, 0x2c, 0xbe, 0x90, 0x6b, 0xdb, 0x3d,
  0x5f, 0x32, 0x63, 0xbe, 0xd8, 0xaf, 0xf9, 0xbd, 0x68, 0x1e, 0x09, 0x3e,
  0x28, 0x92, 0x2a, 0x3e, 0x8b, 0x4d, 0x36, 0xbe, 0x14, 0xed, 0x67, 0x3e,
  0xac, 0x7c, 0xc1, 0xbd, 0x7a, 0xb6, 0x9b, 0xbe, 0xf8, 0xf9, 0xdf, 0xbd,
  0x94, 0xb2, 0xa5, 0xbd, 0x10, 0xc5, 0x18, 0x3d, 0x4c, 0x42, 0xb4, 0x3d,
  0x2c, 0xf1, 0xdc, 0xbd, 0x08, 0xcb, 0xa3, 0xbe, 0xd0, 0x20, 0x67, 0x3e,
  0xc0, 0xb7, 0x82, 0x3d, 0x4e, 0x68, 0x25, 0xbe, 0x96, 0xe7, 0x41, 0xc0,
  0x01, 0x57, 0xe6, 0xbe, 0x58, 0xa8, 0x82, 0xc0, 0xbb, 0x3e, 0xcb, 0xbf,
  0xe3, 0x03, 0xa4, 0xbf, 0x6a, 0x8a, 0x0b, 0xc0, 0xdf, 0x0b, 0xa9, 0xbf,
  0x4a, 0x70, 0xaf, 0x3f, 0x50, 0x8f, 0xc9, 0x3e, 0x70, 0x23, 0xc2, 0xbe,
  0x64, 0xa9, 0x90, 0x3f, 0x94, 0x36, 0x88, 0x3e, 0x31, 0x1e, 0x90, 0x3f,
  0x08, 0x8a, 0x18, 0xbe, 0x5e, 0x76, 0xfd, 0xbe, 0x06, 0x5a, 0x25, 0xc0,
  0x63, 0xfb, 0xc7, 0x3f, 0x51, 0x81, 0x39, 0xbf, 0x46, 0x82, 0xba, 0xbf,
  0x06, 0xa8, 0xa8, 0x3f, 0x48, 0x10, 0xb6, 0x3d, 0x40, 0x6a, 0xc0, 0x3c,
  0x78, 0x6d, 0x90, 0xbe, 0x2e, 0xab, 0xaf, 0xbe, 0xe2, 0xaf, 0xb0, 0x3e,
  0xfe, 0xd5, 0xab, 0x3e, 0x5c, 0xe7, 0x33, 0xbe, 0x00, 0x44, 0x2f, 0x3a,
  0xf0, 0xe9, 0x97, 0xbe, 0x6c, 0xf5, 0x5f, 0xbe, 0x65, 0xbf, 0xb1, 0xbe,
  0x70, 0x89, 0xf8, 0x3d, 0x9e, 0x12, 0x16, 0xbe, 0x04, 0x93, 0x5d, 0x3e,
  0xa8, 0xad, 0x53, 0xbd, 0x27, 0x58, 0x41, 0xbe, 0x77, 0xe7, 0xc8, 0xbe,
  0xac, 0x88, 0x2b, 0x3e, 0x20, 0xf5, 0xf4, 0x3d, 0x5c, 0x52, 0x04, 0x3e,
  0xde, 0xaa, 0xc9, 0xbf, 0x8b, 0x1e, 0x98, 0x3f, 0x14, 0x75, 0xa7, 0xbf,
  0x51, 0xf1, 0x9b, 0xbf, 0xd0, 0xce, 0x06, 0x40, 0x25, 0xcd, 0x88, 0xbd,
  0x8d, 0xbe, 0x68, 0x3f, 0x07, 0x91, 0xa6, 0xbf, 0x0d, 0xd0, 0x29, 0x3f,
  0xeb, 0x83, 0x12, 0x3f, 0x2e, 0xa4, 0x98, 0xbe, 0x6b, 0x4d, 0xd7, 0x3e,
  0x50, 0xe3, 0x23, 0x3f, 0xa1, 0x26, 0xd4, 0xbf, 0x32, 0xbc, 0x87, 0xbf,
  0x35, 0xc8, 0x0a, 0x40, 0xc0, 0x42, 0x51, 0x3f, 0x60, 0x46, 0xa5, 0xbe,
  0xd8, 0x18, 0x5f, 0x40, 0x7f, 0xd8, 0xf9, 0x3f, 0xe2, 0xfe, 0xff, 0xff,
  0x10, 0x00, 0x00, 0x00, 0x04, 0x00, 0x00, 0x00, 0x14, 0x00, 0x00, 0x00,
  0x30, 0x00, 0x00, 0x00, 0x02, 0x00, 0x00, 0x00, 0x10, 0x00, 0x00, 0x00,
  0x14, 0x00, 0x00, 0x00, 0x1b, 0x00, 0x00, 0x00, 0x73, 0x65, 0x71, 0x75,
  0x65, 0x6e, 0x74, 0x69, 0x61, 0x6c, 0x5f, 0x33, 0x2f, 0x64, 0x65, 0x6e,
  0x73, 0x65, 0x5f, 0x36, 0x2f, 0x4d, 0x61, 0x74, 0x4d, 0x75, 0x6c, 0x00,
  0x5c, 0xfe, 0xff, 0xff, 0x7a, 0xff, 0xff, 0xff, 0x04, 0x00, 0x00, 0x00,
  0x18, 0x00, 0x00, 0x00, 0x78, 0xfe, 0x39, 0xbf, 0xb9, 0x61, 0x9b, 0xbd,
  0xcc, 0xab, 0xa1, 0xbd, 0xaa, 0x79, 0xc8, 0xbe, 0x45, 0xfe, 0xf2, 0xbe,
  0xe8, 0x4b, 0xeb, 0x3d, 0x4a, 0xff, 0xff, 0xff, 0x10, 0x00, 0x00, 0x00,
  0x03, 0x00, 0x00, 0x00, 0x10, 0x00, 0x00, 0x00, 0x4c, 0x00, 0x00, 0x00,
  0x01, 0x00, 0x00, 0x00, 0x06, 0x00, 0x00, 0x00, 0x34, 0x00, 0x00, 0x00,
  0x73, 0x65, 0x71, 0x75, 0x65, 0x6e, 0x74, 0x69, 0x61, 0x6c, 0x5f, 0x33,
  0x2f, 0x64, 0x65, 0x6e, 0x73, 0x65, 0x5f, 0x37, 0x2f, 0x42, 0x69, 0x61,
  0x73, 0x41, 0x64, 0x64, 0x2f, 0x52, 0x65, 0x61, 0x64, 0x56, 0x61, 0x72,
  0x69, 0x61, 0x62, 0x6c, 0x65, 0x4f, 0x70, 0x2f, 0x72, 0x65, 0x73, 0x6f,
  0x75, 0x72, 0x63, 0x65, 0x00, 0x00, 0x00, 0x00, 0x04, 0x00, 0x06, 0x00,
  0x04, 0x00, 0x00, 0x00, 0x00, 0x00, 0x06, 0x00, 0x08, 0x00, 0x04, 0x00,
  0x06, 0x00, 0x00, 0x00, 0x04, 0x00, 0x00, 0x00, 0x40, 0x00, 0x00, 0x00,
  0x2d, 0xae, 0x4e, 0x3f, 0x1a, 0x19, 0x10, 0x3f, 0x08, 0x47, 0x87, 0x3e,
  0x32, 0x12, 0xd5, 0x3f, 0x43, 0xf1, 0xd9, 0xbe, 0x2c, 0xb6, 0x53, 0x3d,
  0xc4, 0xe2, 0x63, 0xbd, 0xbb, 0x41, 0x2f, 0x3c, 0x55, 0x8a, 0x07, 0xbe,
  0x6c, 0xfe, 0x17, 0xbf, 0xb8, 0x3f, 0xc8, 0xbd, 0xc4, 0x6f, 0x12, 0xbd,
  0x00, 0x00, 0x00, 0x00, 0x0b, 0x94, 0xcb, 0xbd, 0x00, 0x00, 0x00, 0x00,
  0xf7, 0xd8, 0xd4, 0xbe, 0x00, 0x00, 0x0e, 0x00, 0x14, 0x00, 0x04, 0x00,
  0x00, 0x00, 0x08, 0x00, 0x0c, 0x00, 0x10, 0x00, 0x0e, 0x00, 0x00, 0x00,
  0x10, 0x00, 0x00, 0x00, 0x02, 0x00, 0x00, 0x00, 0x10, 0x00, 0x00, 0x00,
  0x48, 0x00, 0x00, 0x00, 0x01, 0x00, 0x00, 0x00, 0x10, 0x00, 0x00, 0x00,
  0x34, 0x00, 0x00, 0x00, 0x73, 0x65, 0x71, 0x75, 0x65, 0x6e, 0x74, 0x69,
  0x61, 0x6c, 0x5f, 0x33, 0x2f, 0x64, 0x65, 0x6e, 0x73, 0x65, 0x5f, 0x36,
  0x2f, 0x42, 0x69, 0x61, 0x73, 0x41, 0x64, 0x64, 0x2f, 0x52, 0x65, 0x61,
  0x64, 0x56, 0x61, 0x72, 0x69, 0x61, 0x62, 0x6c, 0x65, 0x4f, 0x70, 0x2f,
  0x72, 0x65, 0x73, 0x6f, 0x75, 0x72, 0x63, 0x65, 0x00, 0x00, 0x00, 0x00,
  0xa0, 0xff, 0xff, 0xff, 0x14, 0x00, 0x18, 0x00, 0x04, 0x00, 0x00, 0x00,
  0x08, 0x00, 0x0c, 0x00, 0x10, 0x00, 0x00, 0x00, 0x00, 0x00, 0x14, 0x00,
  0x14, 0x00, 0x00, 0x00, 0x14, 0x00, 0x00, 0x00, 0x01, 0x00, 0x00, 0x00,
  0x24, 0x00, 0x00, 0x00, 0x34, 0x00, 0x00, 0x00, 0x10, 0x00, 0x00, 0x00,
  0x02, 0x00, 0x00, 0x00, 0x01, 0x00, 0x00, 0x00, 0x14, 0x00, 0x00, 0x00,
  0x02, 0x00, 0x00, 0x00, 0xff, 0xff, 0xff, 0xff, 0x14, 0x00, 0x00, 0x00,
  0x0d, 0x00, 0x00, 0x00, 0x64, 0x65, 0x6e, 0x73, 0x65, 0x5f, 0x36, 0x5f,
  0x69, 0x6e, 0x70, 0x75, 0x74, 0x00, 0x00, 0x00, 0xfc, 0xff, 0xff, 0xff,
  0x04, 0x00, 0x04, 0x00, 0x04, 0x00, 0x00, 0x00
};
unsigned int model_logistic_20_tflite_len = 3092;
